0000000000111011
1111111110101100
1111111110011000
1111111110011101
0000000000110010
1111111101111111
0000000010000001
0000000001101101
0000000001011001
0000000010000110
1111111110100010
0000000000000101
1111111110011000
0000000010000110
0000000000001111
0000000000000000
0000000010001011
0000000100100100
0000000011011010
1111111101001001
0000000011000110
0000000001000101
1111111010111001
0000000000100011
0000000000000101
0000000000110010
1111111101110000
0000000101100101
1111111111000101
1111111111110001
0000000011101110
1111111011010111
0000000010011010
1111111011001101
1111111111101100
0000000011100100
0000000000001010
0000000000001111
1111111110110001
1111111110110001
1111111101010011
1111111110100111
0000000010011111
0000000011100100
0000000001101000
1111111101111111
1111111110001110
0000000010101101
1111111111110110
1111110110000110
0000000011010000
0000000011010101
0000000011011010
0000000001000000
0000000000101000
1111111111011000
1111111111100111
1111111110100010
0000000000001010
1111111111001010
1111111110010011
0000000000011110
0000000001000000
0000000000101000
1111111101100001
0000000100011111
1111111011101011
0000000100111101
1111111011110000
0000000011101110
0000000001101101
1111111100101011
1111111101100001
1111111110010011
0000000011010000
1111111100001000
0000000011000001
1111111100001000
1111111100100110
1111111110011101
1111111110111011
0000000001101000
0000000011110011
1111111101100110
0000000001010100
0000000001100011
1111111110110110
0000000001011001
0000000001011001
0000000000110010
0000000000011110
1111111011010010
1111111110011000
0000000000101101
1111111111111011
0000000001001010
