0000011111010101
1111100001100100
0000010001011101
0000110110010101
0000011110111011
0000110011100110
1111001110111100
0000101011001101
1111111001100001
1111001110010001
0000111000001011
0000011110101001
0000110111111111
1111001100001100
1111101110100101
1111001010111111
0001001011101101
1111111110100110
1111111111100101
1111101101000111
1111101000110100
0000111111111111
1111011000000011
0000111110011101
1111011010011111
1111101011101011
0000111110111001
1111001010001101
1111110110101101
1111011100111000
0000000011100010
0001000001010110
0000110111000010
1111101010100010
1111000110101110
1111010011100111
0000011010110100
0000011011000001
0000101000000110
0000110010010000
0000001111011011
0000110000111100
0000100110011100
0000100111111101
1111010010001010
1111010101111011
1111111011110111
0000110100111000
0000100011010001
0000111011010101
1111000011111000
1111110101101100
0000110001101100
1111110000100110
1111110000011010
1111100000001001
1111110110010001
1111111110010001
1111001000010000
0000110010001000
1111100111101010
1111101011100010
0000111011100011
0001010010010010
