00000011
11111101
00000010
00000110
00000011
00000110
11111010
00000101
00000000
11111010
00000111
00000011
00000110
11111010
11111110
11111010
00001001
00000000
00000000
11111110
11111110
00000111
11111100
00000111
11111100
11111110
00000111
11111010
11111111
11111100
00000000
00001000
00000110
11111110
11111001
11111011
00000011
00000011
00000101
00000110
00000001
00000110
00000100
00000100
11111011
11111011
00000000
00000110
00000100
00000111
11111001
11111111
00000110
11111111
11111111
11111101
11111111
00000000
11111010
00000110
11111101
11111110
00000111
00001010
