11101100
11111110
00010001
00010011
00010010
11111001
10110111
10100110
01011101
11110100
11001001
00001000
11111001
00001110
00001000
00100001
01000001
00110101
11010110
11101011
11100110
00101100
11011111
00011111
11010000
00000111
11111001
11101110
00011111
10010111
11000101
00001010
01001110
00110011
11110001
11111010
11110001
00111110
11111011
00101111
00100001
00010101
00001010
11101011
00000001
11010111
11101101
11111001
00010101
11100110
00010011
00010001
00000010
00100101
11101101
00100000
11101101
00000001
11101110
00000101
00111011
10100110
10110101
11111110
11111101
00011101
00110110
11110000
01000101
00100100
00000111
00011010
00001000
00000111
00110000
01010101
00011111
11011010
10110111
00000010
00100011
00101011
00000110
11011001
00100010
00011011
11111011
11110001
11111001
11111111
00001010
00001010
11100000
00000000
10110011
11110000
01111101
11110111
00101100
11001110
00100001
11100100
11111111
00001010
00000001
11110100
00010101
11110110
11101010
11111100
11001010
00011001
01010011
00011100
00100011
11111010
01101101
10101000
11111110
11001000
00000110
01000101
11010111
11111111
11011010
00110101
00110101
00011010
11110010
00001101
11101001
11110010
11111100
11110111
11111011
11101010
01001010
00110000
00000001
11110100
00100101
10000000
10010100
11101010
00111111
11100101
00001100
11111101
00010000
11101001
00100110
00001000
11110000
11101110
00100010
00101100
11100010
00101000
10110110
00001001
00101101
00011001
00001001
11101000
00000010
11100100
11100110
11100011
01000111
00110000
11010111
00010111
11110010
11110100
11100011
11110000
11010111
10111100
00011000
00100000
11100001
00011110
11101100
00011000
00011100
00011011
11110011
11011110
00111101
11000010
10110111
00011100
11101101
00000101
00000111
00010010
11011111
00100001
11111011
00011011
10110110
11111010
00011101
11001111
11111101
10111000
00001100
11000000
11110101
00001000
11010010
11111000
00010010
11001100
11011101
00000011
01010101
00011001
11011000
11011100
11010000
00001010
00010101
11101001
10101001
00001111
11011100
00001110
11111011
00001111
00000011
11010110
00000101
11100110
00100010
00000100
11001110
11111001
00011111
11011010
00001011
00101001
11101011
11011011
00111011
00010000
00000100
00000111
00001000
00001010
00000101
00001001
11101000
11010000
10101111
00001111
