0000000000010000
1111111111011111
0000000000101100
0000000000011000
1111111101101011
0000000001000101
0000000000011111
1111111110011100
0000000000100001
0000000010011001
1111111111000110
1111111110100111
0000000001110110
1111111111101010
0000000000100001
0000000000110101
1111111111110011
1111111111001111
1111111101110110
1111111110100101
0000000011010001
0000000001010100
0000000000110111
1111111111000100
1111111111101010
1111111110001110
0000000000101101
0000000000100001
0000000000001111
0000000001001110
1111111111110001
1111111110100000
0000000001101111
1111111111011101
1111111111000110
0000000000111010
1111111110010111
0000000000110111
0000000000101000
1111111110111101
1111111111100011
1111111110101011
1111111110101100
0000000001000111
1111111101100110
0000000000101010
0000000001010111
1111111101111111
1111111110110101
0000000001101101
0000000000101010
1111111110110100
0000000000001111
0000000000001111
1111111111001111
0000000010000101
0000000000000000
0000000000010100
1111111111001011
1111111111011101
0000000000010100
1111111110111101
0000000001010111
0000000000010110
0000000001110001
1111111101110100
0000000000000111
0000000001101111
1111111101100100
0000000000011000
0000000000101111
1111111110001111
1111111111110001
0000000000100110
1111111111001000
0000000000010000
1111111110100001
0000000001000001
0000000000110101
1111111111011000
0000000000011000
0000000000110101
1111111111000110
1111111111000110
0000000000100110
0000000001100000
1111111111100101
0000000000101000
1111111111100011
1111111110010011
1111111111000000
1111111111101110
1111111111010011
0000000000100110
0000000001010100
1111111110101001
1111111111100101
0000000000100100
0000000000110001
1111111111101000
0000000000110011
1111111110010011
0000000000000000
0000000000100100
0000000001001110
0000000000011111
0000000001011111
1111111111011010
0000000000010110
1111111110111111
1111111110011110
0000000001110110
0000000001011111
1111111110011110
0000000000001111
0000000010011001
1111111111001111
1111111110001111
0000000001101011
1111111101100100
1111111111000000
0000000000011000
0000000001001011
0000000000110001
1111111110010101
0000000001010101
1111111110011000
1111111111001111
0000000000111000
1111111111011111
0000000000011001
0000000000111110
1111111111110011
1111111101100100
0000000001100000
1111111110011000
1111111111011101
1111111111011111
0000000010010000
0000000000100011
1111111110001110
0000000000111110
1111111110100011
0000000000010000
0000000001010100
1111111110010111
0000000000000010
0000000001000011
0000000000100100
1111111110101100
0000000000010000
1111111101111011
0000000000011001
0000000000001111
0000000001010111
0000000001101101
1111111111110111
0000000000101101
1111111110001111
0000000000011111
1111111110111011
0000000001101000
1111111111111100
1111111111110111
1111111111110101
0000000000110101
1111111111110001
0000000001101001
1111111111100101
1111111111110001
1111111110101011
1111111111100101
1111111111001011
1111111111011100
0000000001101011
1111111111000100
1111111111110111
1111111111001111
1111111111110101
1111111111110011
1111111110100111
0000000000111010
0000000000100100
1111111110111111
0000000000101111
0000000001100010
1111111111100001
1111111111101110
0000000011001101
1111111110111001
0000000000010010
0000000000011000
1111111111101000
0000000001010010
1111111111001001
1111111110010001
0000000000101000
0000000010011110
1111111110001010
0000000001101001
0000000001000000
1111111111010100
1111111110110000
1111111110011010
0000000001101101
1111111111100101
0000000001000101
0000000000101100
0000000000110101
1111111110100101
0000000000111100
0000000010010011
1111111110111011
1111111101111011
0000000000100011
1111111110110111
0000000000011000
1111111111110111
0000000001010100
0000000001010101
1111111110100101
0000000000011011
1111111110000100
0000000000111000
0000000000110001
1111111101101011
1111111110110100
0000000000100001
1111111110101110
0000000000101000
0000000001100110
1111111101100100
0000000000000000
1111111111110011
1111111111110000
0000000001100000
0000000001001011
0000000000101101
1111111111010011
1111111111001101
0000000000000000
0000000001000001
0000000001111111
0000000001111000
1111111110110101
1111111111110011
0000000000110111
0000000000101010
0000000000011000
1111111111001111
1111111110011110
1111111111010100
1111111100010111
1111111110110111
0000000000101100
0000000000001001
