0000110110111100
0000111110010000
0000001100100000
0000100011110100
1111101010001110
0000000011001011
1111010001011010
0000101001100110
0000110001110000
0000100001010010
1111001011011000
1111011010101011
1111111001110001
1111000001011110
0000000000000110
1111001110100000
1111101011101011
0000010111111000
1111001010100001
1111010010011010
1111100010000010
0000101001001000
0000000011000110
0000100000101101
0000011000010101
0000010101000011
1111111111111101
1111010110100010
1111110111101100
0000110010010000
0000011100101010
1111100010110100
1111001010010011
0000101010011000
0000110101111111
0000001011010000
1111110011001100
1111100000110101
1111110100001110
0000001000010001
1111110011111001
1111000111000100
0001000100100010
1111011010111101
0000001110000111
0000010110100011
0000110001111011
1111001001100010
1111101101110101
1111011001100111
1111100000001010
0000111001010000
0000101110101011
0000011010111100
1111000111010110
0000000000101111
1111101100000001
1111110100011100
1111100100010100
0000111000101110
0000000011010110
1111010100110111
0000101001110100
1111111111101111
