00100110
11100101
00101000
00011010
00000111
11000001
11111000
11100011
00110110
11110010
00011001
11011000
11100001
00001101
00010111
11001011
11110000
00100011
00111101
11010101
00010010
11110011
00010010
01001010
11110011
11001100
00101111
01011000
00001111
11010100
10010111
00110001
00010010
00001111
00001111
11100000
00010001
00010011
00000011
00001001
00100100
00100101
11110011
00010010
11111010
11100100
10101110
11111011
00010000
11111101
00101010
10110010
01000011
11010111
11111100
00101101
11111010
10111001
00111101
01111111
11001110
11010100
11111001
00010100
00000111
00010111
00101110
00011010
11110100
11001001
10110110
01000111
11110110
11110110
00010110
11001001
11110100
11100111
00011000
01111101
11111100
11100101
00101011
00001101
11111000
11101110
00100000
00111010
11100111
01001010
11111111
11111110
00101011
00100000
11100111
00000100
11001111
00101010
00011100
11011010
00101111
11101101
11110110
00011011
00100111
00110111
11100011
00001110
00011100
00001100
01000011
00101001
00001110
00110100
00110110
01000100
00010111
10111011
11110111
11010010
00001110
11011000
10011011
00010011
00011110
00110100
01011110
11011001
00101010
00010010
01010001
11100011
11101001
10111100
11011000
01000010
01010001
00001010
01111010
00001111
00011100
10101100
11010011
11010011
11000011
11101011
00010101
11101111
00010100
11110000
11110000
00110101
11010011
01010101
11111001
10111011
11110100
00001001
00010100
00101111
11011100
00110001
11111111
00111000
11001011
11000000
11111110
00010001
01010000
00010010
00011001
00001100
00000000
11001001
00101011
11001110
11111100
11110011
00001111
11010100
00010100
11001110
11011001
00101100
11101010
11011100
00110110
00110000
11110010
10111011
00100100
11011011
00010110
11001100
00010010
00000111
00101010
00011100
00110000
11110100
11111111
11110010
00100111
00000101
00101001
00000001
10111001
00100000
00000010
11110011
11111101
01010110
10110001
00001000
00000001
11110000
01111110
00110001
00011000
00001111
11011100
00110010
00100001
10001101
00100101
11000110
00000000
01001001
11111100
01011010
11100101
11110011
00011011
00100111
00110011
11001011
00011111
00111110
11111001
11111011
00010001
11111001
00001011
00011000
00011011
11010110
00010011
00101101
00100011
00100111
00011001
11111111
00101101
00000001
00011101
00101000
