00000000
11111101
00000100
00000111
00000101
11111000
00000110
00000000
11111010
11111100
00001001
11111011
11111111
11111100
00001001
11111110
11111011
00000000
00000100
00000011
00000000
00000111
00000000
00000110
00000100
00000010
11111011
00000000
00000110
11110100
00000000
00000000
11111100
00000011
11111011
11111101
11111110
00000001
11111101
00001000
00001001
00000000
00001000
11111111
11110111
11111110
00000110
00000110
11111101
00000101
11111011
11111111
00000101
00000000
11111011
11111011
11111100
11111100
11110111
11111111
11111011
11111110
00000011
00000000
