0000000101000110
1111100100000010
0000100100101100
0000111111000111
0000101001101111
1110111100011011
0000110001100010
1111111110101010
1111001110011101
1111011101010100
0001001010010010
1111010110110000
1111110001110101
1111011101000111
0001001110000001
1111101011001110
1111010000011011
0000000100011000
0000100001101110
0000011010101111
1111111011001111
0000111010111001
1111111100100000
0000110000110111
0000100011101010
0000010011011000
1111010000100010
1111111001001110
0000110100000000
1110011111111000
1111111100001101
1111111011001100
1111011010100110
0000011100100101
1111010011100101
1111100000110110
1111101011001001
0000001000011001
1111100110000010
0001000111110000
0001001001001110
1111111011110011
0001000011101001
1111110101011010
1110110011001100
1111101010011101
0000110111001101
0000110011011100
1111100010010111
0000101000001111
1111010110000001
1111110010010111
0000101000110010
1111111001011111
1111010100111100
1111010110001111
1111011011001000
1111011001001000
1110110000110011
1111110100110110
1111010100110001
1111101101001101
0000011000100011
1111111101100000
