1111111111011110
1111111111111101
0000000000011101
0000000000100001
0000000000011111
1111111111110100
1111111110000010
1111111101100101
0000000010100000
1111111111101011
1111111110100001
0000000000001110
1111111111110100
0000000000011000
0000000000001110
0000000000111001
0000000001110000
0000000001011011
1111111110111000
1111111111011100
1111111111010011
0000000001001100
1111111111000111
0000000000110101
1111111110101101
0000000000001100
1111111111110100
1111111111100001
0000000000110101
1111111101001011
1111111110011010
0000000000010001
0000000010000110
0000000001011000
1111111111100110
1111111111110110
1111111111100110
0000000001101011
1111111111110111
0000000001010001
0000000000111001
0000000000100100
0000000000010001
1111111111011100
0000000000000010
1111111110111001
1111111111011111
1111111111110100
0000000000100100
1111111111010011
0000000000100001
0000000000011101
0000000000000011
0000000001000000
1111111111011111
0000000000110111
1111111111011111
0000000000000010
1111111111100001
0000000000001001
0000000001100110
1111111101100101
1111111101111111
1111111111111101
1111111111111011
0000000000110010
0000000001011101
1111111111100100
0000000001110111
0000000000111110
0000000000001100
0000000000101101
0000000000001110
0000000000001100
0000000001010011
0000000010010011
0000000000110101
1111111110111110
1111111110000010
0000000000000011
0000000000111100
0000000001001010
0000000000001010
1111111110111101
0000000000111011
0000000000101111
1111111111110111
1111111111100110
1111111111110100
1111111111111110
0000000000010001
0000000000010001
1111111111001001
0000000000000000
1111111101111011
1111111111100100
0000000011010111
1111111111110000
0000000001001100
1111111110101010
0000000000111001
1111111111010000
1111111111111110
0000000000010001
0000000000000010
1111111111101011
0000000000100100
1111111111101111
1111111111011010
1111111111111001
1111111110100011
0000000000101011
0000000010001111
0000000000110000
0000000000111100
1111111111110110
0000000010111100
1111111101101000
1111111111111101
1111111110011111
0000000000001010
0000000001110111
1111111110111001
1111111111111110
1111111110111110
0000000001011011
0000000001011011
0000000000101101
1111111111101000
0000000000010110
1111111111011000
1111111111101000
1111111111111001
1111111111110000
1111111111110111
1111111111011010
0000000010000000
0000000001010011
0000000000000010
1111111111101011
0000000001000000
1111111100100011
1111111101000110
1111111111011010
0000000001101101
1111111111010001
0000000000010101
1111111111111011
0000000000011100
1111111111011000
0000000001000010
0000000000001110
1111111111100100
1111111111100001
0000000000111011
0000000001001100
1111111111001100
0000000001000101
1111111110000000
0000000000010000
0000000001001110
0000000000101011
0000000000010000
1111111111010111
0000000000000011
1111111111010000
1111111111010011
1111111111001110
0000000001111010
0000000001010011
1111111110111001
0000000000101000
1111111111101000
1111111111101011
1111111111001110
1111111111100100
1111111110111001
1111111110001011
0000000000101001
0000000000110111
1111111111001011
0000000000110100
1111111111011110
0000000000101001
0000000000110000
0000000000101111
1111111111101010
1111111111000101
0000000001101001
1111111110010101
1111111110000010
0000000000110000
1111111111011111
0000000000001001
0000000000001100
0000000000011111
1111111111000111
0000000000111001
1111111111110111
0000000000101111
1111111110000000
1111111111110110
0000000000110010
1111111110101100
1111111111111011
1111111110000100
0000000000010101
1111111110010010
1111111111101101
0000000000001110
1111111110110001
1111111111110010
0000000000011111
1111111110100110
1111111111000100
0000000000000101
0000000010010011
0000000000101011
1111111110111011
1111111111000010
1111111110101101
0000000000010001
0000000000100100
1111111111011000
1111111101101010
0000000000011010
1111111111000010
0000000000011000
1111111111110111
0000000000011010
0000000000000101
1111111110111000
0000000000001001
1111111111010011
0000000000111011
0000000000000111
1111111110101010
1111111111110100
0000000000110101
1111111110111110
0000000000010011
0000000001000111
1111111111011100
1111111111000000
0000000001100110
0000000000011100
0000000000000111
0000000000001100
0000000000001110
0000000000010001
0000000000001001
0000000000010000
1111111111010111
1111111110101101
1111111101110100
0000000000011010
