1111111111111011
1111111110100110
1111111110011111
1111111111111001
0000000000110011
0000000000000111
0000000011001111
0000000000001110
1111111111110111
0000000001010101
1111111110100110
1111111100111010
0000000000000101
0000000000110111
0000000000101100
0000000001111010
1111111110110000
0000000001000000
0000000001110011
0000000011010110
1111111111111001
1111111110111011
1111111111011001
1111111111010100
1111111111001101
1111111110101001
1111111111011011
0000000010111111
0000000000001011
1111111111111110
1111111111111110
0000000000011110
1111111111111110
1111111101000110
0000000001010011
0000000011000001
0000000000001011
1111111111000100
0000000011111000
0000000000001001
0000000000000111
1111111111110111
1111111110000100
0000000001000000
1111111111001011
0000000000101001
0000000001010111
0000000000011001
0000000001110001
1111111101111111
0000000000111110
0000000001111000
0000000001001100
0000000001100101
1111111110101001
0000000000111100
1111111110011011
0000000001000000
0000000000110111
1111111110110100
0000000001000000
1111111110000110
1111111111011110
0000000000110111
1111111100000001
0000000010011100
1111111110101011
0000000001010101
0000000001011100
1111111111101001
1111111110010100
1111111110101101
1111111101111011
1111111111100100
0000000000011100
0000000000000111
0000000000010101
1111111111000111
1111111111011011
0000000000110111
0000000000001011
1111111011011100
0000000010101111
0000000001101110
0000000011101000
1111111110100100
0000000010110001
0000000000101100
0000000000111100
0000000001100001
1111111101101101
1111111111010000
1111111101111101
0000000001100001
0000000001001100
1111111111010010
0000000000011110
1111111111100010
1111111110110010
1111111111101001
0000000001000000
0000000001001100
0000000010101000
0000000001010000
0000000000110011
0000000001000101
1111111101100001
0000000000110111
1111111111001011
0000000001000111
0000000001001100
0000000001110011
0000000001000011
0000000000111110
0000000000000111
0000000010010001
0000000000001011
0000000001011100
0000000011000001
1111111111110000
0000000001011010
0000000001001100
1111111110110110
1111111100010011
1111111111000010
0000000001010011
0000000001110101
1111111100111111
1111111111100010
0000000000100111
1111111111111110
0000000001000000
1111111111000111
1111111111000100
1111111110000110
0000000000010010
1111111111100100
0000000001000101
1111111110010110
0000000010111111
1111111111101011
1111111111100111
0000000000101110
0000000000001011
0000000000111110
1111111110101101
1111111111111001
0000000001011010
0000000001011100
1111111110101011
0000000000001110
0000000000101100
0000000000010111
0000000000111001
0000000000001001
0000000010100001
1111111110111011
0000000000010111
0000000000110000
0000000000010010
1111111111110101
1111111101001101
1111111101100100
1111111110100100
1111111101000110
1111111111011011
0000000001101110
0000000001010011
0000000000001011
1111111110110100
1111111110011101
0000000000010111
1111111111000010
0000000000101001
0000000000101110
1111111111011001
0000000000001110
1111111111010010
1111111110010010
1111111111010111
1111111101101111
1111111111011110
0000000000101001
0000000000001011
0000000000101100
1111111111001101
1111111110011011
0000000001010011
1111111111001011
0000000000100010
0000000001010000
0000000010001100
1111111111010111
0000000001101100
1111111110010100
0000000010011100
0000000001000000
0000000010100011
0000000000111100
1111111100000011
1111111111011110
0000000000010000
0000000001100111
0000000010000001
0000000000010010
1111111111101001
1111111111100010
0000000000000010
0000000001011010
0000000000001110
1111111110010010
1111111111100000
0000000010000001
0000000000000010
1111111111111011
0000000000000101
0000000000101001
0000000010010011
1111111101101111
0000000010001100
1111111111000111
1111111111110111
0000000001010000
0000000001110001
1111111111000111
0000000000110000
1111111110011101
1111111111110111
0000000000000000
0000000001111000
1111111100110110
0000000000110000
1111111110100110
1111111011111010
0000000000010000
0000000010110001
1111111111111011
1111111110101011
1111111110110000
0000000000010111
1111111101110100
1111111110110100
0000000000001011
1111111100101000
0000000001100011
0000000010111101
1111111111110000
0000000001001100
0000000000010010
0000000000111100
1111111111100100
1111111110100100
1111111111100100
1111111111100100
0000000000001011
0000000000111100
