1111010101101000
1111100010001101
0000101011101010
0000010110001001
0000000101101010
1111011010001110
1111000100101101
0000010101110100
0000101110100001
0000110111011010
0000011001010101
0000100000110101
0000011001000001
0000111001101001
0000010101101011
0000000010011111
1111011001100100
0000110011000110
0000100100101100
1111111101100000
1111111100101011
0000010011001011
0000010011000000
0000111101100111
0000100011110100
1111101011111101
1111011101101100
0000011001000011
0000011110101011
1111100110110000
0000100111110000
0000100110110100
1111110010100011
0000111100101101
1111011100010001
0000101001010011
1111110110001101
1111001101000101
0000100000110100
0000000011110000
1111001011011010
0000111101000111
0000010101110110
1111111100011000
0000001110011110
1111001011101101
1111101100101011
0000001101001110
0000001101001110
0000110001100011
1111110011100010
1111100100101100
0000001010110000
1111011100011000
0000010101011010
0000000000111101
0000111110011000
1111110010111010
0000101001000011
0000111110010101
1111000111010010
0000010110000000
0000000101000000
1111011110110000
