11111011
11111101
00000101
00000010
00000000
11111100
11111001
00000010
00000101
00000110
00000011
00000100
00000011
00000111
00000010
00000000
11111100
00000110
00000100
00000000
00000000
00000010
00000010
00000111
00000100
11111110
11111100
00000011
00000011
11111101
00000100
00000100
11111111
00000111
11111100
00000101
11111111
11111010
00000100
00000000
11111010
00000111
00000010
00000000
00000001
11111010
11111110
00000001
00000001
00000110
11111111
11111101
00000001
11111100
00000010
00000000
00000111
11111111
00000101
00000111
11111001
00000010
00000000
11111100
