00000100
11111010
11110101
00001000
11111010
11111100
00000000
00000000
00000011
00000000
00001000
11111001
00000110
11111100
11111101
11111111
00000010
00000110
11111101
11111101
00000000
11110111
00000010
11111000
11111011
00000101
00001010
11111111
11111111
00001000
00000000
00000101
00000001
11110111
11111100
11111000
00000110
11110111
00001001
00000000
11111101
11111001
00000110
11111110
00000000
11110111
11111101
11111100
11111011
11111100
11111110
00000011
00000100
11111110
00001001
11111100
11111100
00000010
00000000
11111110
00000011
00000111
00000111
00000001
