0000100100101100
1111001000001100
1110100000100001
0001000010001101
1111001100011000
1111011110101001
1111111110100100
0000000000000110
0000011110010010
1111111000010000
0001000111110101
1111000011001101
0000110001010101
1111011011111111
1111100110100010
1111110010100000
0000010111110110
0000110100111110
1111100011100000
1111100100110001
0000000000010101
1110110000100000
0000010111111001
1110111001111010
1111010000001011
0000101001010101
0001010100110101
1111110111011100
1111110111000111
0001000110001000
0000000111010010
0000101011010001
0000001101111000
1110110001011100
1111011100110100
1110111100100000
0000110111010011
1110110001101101
0001001100111110
1111111101011110
1111100100111110
1111000011011000
0000110011011011
1111101001111001
0000000001000011
1110110011011001
1111100111100110
1111011100011011
1111010000110100
1111011000100010
1111101100011011
0000011110110011
0000100010110100
1111101101011101
0001001000101010
1111011100011011
1111011001101110
0000010110010001
1111111000100100
1111101101100100
0000011001100000
0000111000011010
0000111100010100
0000001111101111
