11101100
00010110
00100001
00011010
00010101
00000111
00010101
00001010
00011000
11000001
11111101
11101001
00011000
00100000
11001100
00011000
11111100
00101010
11111110
11101001
00110101
11001100
11011001
00010110
11010010
11111110
11001101
11111010
00101011
11001100
00101010
00010010
00010110
11000001
11110110
11101110
00101101
00101011
11000100
11001010
00010010
00011101
11001110
11101001
11101001
00111011
00011000
11100011
00011111
11101011
11010110
00010000
11101011
11011011
11100000
00101011
00101001
11111100
00101010
11000011
11011101
11011100
11101100
00101111
