1101011001010010
0010110010010011
0100001101000001
0011010010111000
0010101000001110
0000111110111110
0010101110111011
0001010111001100
0011000001101011
1000000001111011
1111100111000010
1101000001010111
0011000001101011
0100000110011010
1001011001011011
0011000101000100
1111011101100111
0101010011011001
1111101110100111
1101000101001100
0110101110010001
1001011010001100
1011000011001000
0010110011110110
1010001011101001
1111101101110110
1001100001100110
1111001000111100
0101011110000110
1001011111011001
0101010110100011
0010010011111100
0010110001011010
1000000111110111
1110101101111011
1101101101011110
0101101000010101
0101011101110011
1000011011110110
1001001111100011
0010010101011001
0011101001110010
1001101101111000
1101000010100111
1101000011101110
0111011111110011
0011000100101101
1100010010111111
0011111110011111
1101010010100000
1010101000010001
0010000000110011
1101010011110110
1011010100011010
1011111111111010
0101011011100011
0101001100101101
1111011000001101
0101010101110101
1000010010001011
1011100110001011
1011011101100110
1101011000011101
0101111111001111
