11111111
10100001
01111110
10110101
10100111
01010110
00000111
01100111
00000110
11011010
11100111
10100110
11001101
10101100
01011011
01101010
00111110
00100101
10111101
00011111
11110101
10111101
00001001
10100100
01110110
00100011
10110001
10111111
01110000
00101010
11001001
11011001
10100100
10100000
11000011
10110000
11101100
10010001
10100101
10111100
11110001
10000000
00101110
01011000
10111000
10111000
00100101
00100110
01100101
11000101
00111011
01000110
00011000
10100011
11001000
00001011
10000001
01011111
00001100
00010110
10101100
11000101
01001010
11111001
