11110011
00001011
00010010
00100001
00010111
00100110
11111010
11111000
11111110
00011000
00100001
11111011
11101000
00010110
11100111
00011010
00010100
00000000
11111101
00100111
00000000
11110001
11011010
00011100
11111000
11100100
11110100
00101100
00001000
00001111
11101000
11111111
11110010
11110110
11111110
00001111
11110000
00001011
00000101
11101111
11111100
01001111
11111111
11110010
11110100
00010111
00001100
00000110
11100111
11110101
11101110
11110010
00010001
11111111
11111101
00000001
11110110
00010000
11111011
11111011
00000110
00001100
00010110
00011101
00001111
00010000
00001100
11001111
11011001
00001001
11101001
11100011
11111011
00100110
00010011
11101100
00001101
11101100
00011011
01001011
00011010
11111111
00000011
11101010
10100011
01111111
10100010
11110000
00011011
00010101
00001010
01011111
11101111
00010111
11111001
00110110
11011001
00010001
00000001
00001110
00100000
00000110
00000001
11101010
11101011
00001000
00000101
00110000
00000011
11100011
00100101
11100111
11101001
00010111
00011010
00011110
11111111
00000100
00000111
11110100
00001110
11111110
00001001
00001100
00000111
00001000
11110001
11100111
00000101
00011011
01001010
00010110
00101000
00011110
00110010
11001011
11101100
00101001
01010001
01101111
10111011
11100111
11100000
11011000
00001000
00100110
00100000
00000100
00100110
00011101
11110101
11111111
11011110
00100011
00010111
00000000
11100011
00000110
00001111
00101010
00001110
11101001
11100110
11010110
00001000
00100111
00011100
00011110
00000010
00110100
00000110
11101011
00011110
00010000
11110101
11111110
00010111
00001010
11101100
11101111
00011100
11100110
00000000
00000100
11100010
11100111
11101011
10101010
00011001
11110000
00000001
00011001
11111010
11001111
10011100
11010000
11111000
00011010
11001000
01110101
00111110
00110111
10110011
11011011
01000111
01000000
00001100
00100111
11111011
00011110
01010000
00011000
00011110
11101110
00110100
11001011
10110101
00000110
01000011
00101111
10110110
11010101
11111000
10111110
11111101
00011011
01010001
00011111
11111000
11110101
00011010
10111011
11100000
11111100
00101111
00010111
11010111
11011000
11110110
00000111
11110100
00000110
00010001
00010010
11101101
11111010
11101011
11110111
00000101
11010101
11110010
00000001
00001101
11110111
00001101
00011101
