11101101
11000000
00000110
11010011
11010010
11100000
00010010
11010111
11011101
11000101
11011010
00110100
00011011
00011110
11101001
11011111
11110001
00000111
11100100
00111101
00100100
11000110
11011110
11101101
00011000
00001000
11101000
11100001
00110010
11100111
00001010
00100011
00010010
00100110
11010110
00111011
00101000
11011001
10111110
00000110
00000110
00001110
11000011
10111011
01010101
00010101
11111111
11110101
00101000
00111001
11010000
00101001
00000011
11001110
11001011
11101001
11110110
11101000
11011111
11111000
00001100
11110101
00001100
00101001
11110010
01011001
10101010
11111001
00010000
11101111
10110110
11110110
00011110
11001000
11110101
11001000
00110010
11011001
00100111
00000001
00110001
10010001
11100111
11100001
00111111
11011011
00110100
11111101
11101001
00000101
00011000
00001101
00110000
11110001
11100111
00000110
00001010
01001010
11010000
00101111
11111000
11111100
11010110
00010101
00011010
11110010
00010001
11000111
11111000
11101111
00100011
11111010
11101000
00000101
00010100
10111100
11111010
00010101
00010111
11101011
11100001
11011011
00100101
00111001
10101001
11101100
11011101
00001101
00000110
11010000
00001100
00000001
11100101
11110011
00100110
11111110
11101110
00101101
00011110
01001000
10111100
11110011
10100001
11111001
11010011
11110110
11000011
11010101
01011111
11010100
00011100
00110010
11100011
00001010
00100101
11010100
11110001
00001001
00001010
00011110
00101110
11110111
11001101
00110010
00001110
11001001
10111101
00001110
11101000
11100010
11011101
10110010
00110100
00011011
00101000
00011110
01100110
11100110
10100100
00100011
00011111
11111111
01111111
00001101
11001011
00001110
11000000
00000010
00111011
00000011
11101110
00000110
11100011
11111100
00111000
11011110
11010011
00100011
01001000
00000011
00000011
00000001
00100000
00111100
10111011
11100110
11111100
11011110
11011101
11010001
11010110
11110100
00001000
11101011
00010011
11101100
11100000
11011101
00110011
00111101
11100011
00001000
11100110
11111101
10111010
00100101
00111110
11011010
11101010
00110000
00111011
00101101
11111111
01100111
00101010
10111101
00001010
00001100
00101100
00110111
11001011
10001001
01100011
11001110
00011100
11011010
00101110
00001011
11110101
11111000
00001110
00101100
00011111
11110100
00000001
00000100
