1111111111011011
0000000000100000
0000000000110100
0000000001011111
0000000001000010
0000000001101101
1111111111101111
1111111111101001
1111111111111010
0000000001000101
0000000001011111
1111111111110010
1111111110111011
0000000000111111
1111111110111000
0000000001001011
0000000000111010
0000000000000000
1111111111110111
0000000001110000
0000000000000000
1111111111010101
1111111110010011
0000000001010001
1111111111101001
1111111110101111
1111111111011101
0000000001111111
0000000000010111
0000000000101011
1111111110111011
1111111111111101
1111111111011000
1111111111100011
1111111111111010
0000000000101011
1111111111010010
0000000000100000
0000000000001110
1111111111001111
1111111111110100
0000000011100100
1111111111111101
1111111111011000
1111111111011101
0000000001000010
0000000000100011
0000000000010001
1111111110111000
1111111111100000
1111111111001100
1111111111011000
0000000000110001
1111111111111101
1111111111110111
0000000000000011
1111111111100011
0000000000101110
1111111111110010
1111111111110010
0000000000010001
0000000000100011
0000000000111111
0000000001010100
0000000000101011
0000000000101110
0000000000100011
1111111101110011
1111111110010000
0000000000011010
1111111110111110
1111111110101100
1111111111110010
0000000001101101
0000000000110111
1111111111000110
0000000000100101
1111111111000110
0000000001001110
0000000011011000
0000000001001011
1111111111111101
0000000000001001
1111111111000001
1111111011110100
0000000101101110
1111111011110001
1111111111010010
0000000001001110
0000000000111101
0000000000011101
0000000100010010
1111111111001111
0000000001000010
1111111111101100
0000000010011100
1111111110010000
0000000000110001
0000000000000011
0000000000101000
0000000001011100
0000000000010001
0000000000000011
1111111111000001
1111111111000011
0000000000010111
0000000000001110
0000000010001010
0000000000001001
1111111110101100
0000000001101011
1111111110111000
1111111110111110
0000000001000010
0000000001001011
0000000001010110
1111111111111101
0000000000001100
0000000000010100
1111111111011101
0000000000101000
1111111111111010
0000000000011010
0000000000100011
0000000000010100
0000000000010111
1111111111010101
1111111110111000
0000000000001110
0000000001001110
0000000011010101
0000000000111111
0000000001110011
0000000001010110
0000000010010000
1111111101100111
1111111111000110
0000000001110110
0000000011101001
0000000101000000
1111111100111001
1111111110111000
1111111110100100
1111111110001101
0000000000010111
0000000001101101
0000000001011100
0000000000001100
0000000001101101
0000000001010100
1111111111100000
1111111111111101
1111111110011110
0000000001100101
0000000001000010
0000000000000000
1111111110101100
0000000000010001
0000000000101011
0000000001111001
0000000000101000
1111111110111110
1111111110110101
1111111110000111
0000000000010111
0000000001110000
0000000001010001
0000000001010110
0000000000000110
0000000010010110
0000000000010001
1111111111000011
0000000001010110
0000000000101110
1111111111100000
1111111111111010
0000000001000010
0000000000011101
1111111111000110
1111111111001111
0000000001010001
1111111110110101
0000000000000000
0000000000001100
1111111110101010
1111111110111000
1111111111000011
1111111100001000
0000000001001000
1111111111010010
0000000000000011
0000000001001000
1111111111101111
1111111101110011
1111111011100000
1111111101110110
1111111111101001
0000000001001011
1111111101011111
0000000101010001
0000000010110011
0000000010011110
1111111100100010
1111111110010101
0000000011001101
0000000010111000
0000000000100011
0000000001110000
1111111111110010
0000000001010110
0000000011100110
0000000001000101
0000000001010110
1111111111001100
0000000010010110
1111111101100111
1111111100101000
0000000000010001
0000000011000001
0000000010000111
1111111100101011
1111111110000100
1111111111101001
1111111101000010
1111111111110111
0000000001001110
0000000011101001
0000000001011001
1111111111101001
1111111111100000
0000000001001011
1111111100111001
1111111110100100
1111111111110100
0000000010000111
0000000001000010
1111111110001010
1111111110001101
1111111111100011
0000000000010100
1111111111011101
0000000000010001
0000000000110001
0000000000110100
1111111111001001
1111111111101111
1111111111000011
1111111111100110
0000000000001110
1111111110000100
1111111111011000
0000000000000011
0000000000100101
1111111111100110
0000000000100101
0000000001010100
