11001101
11011001
01000001
11001011
10001011
11001100
01100010
00001100
00000011
01001101
10100111
01100001
10111011
11100110
10101000
00110000
11101000
11110110
01101001
10110111
11010010
11100111
00001100
11000100
10110001
11101001
11101100
01000101
11000000
00111111
01001001
10000000
01010100
00011001
01101010
01001011
11001110
11010000
00000001
01010011
01000110
10100100
11000110
01100001
00101111
11010000
01101111
01010111
11110011
11001111
01000100
01001111
10001111
01100000
11101011
01001010
01000000
01101010
11000110
10100011
10100101
00001110
10101101
00011010
01000011
01100011
10110111
00010001
00111001
00000010
10010100
11100010
01011101
11001000
01110000
10110100
01101001
00011011
01100001
10111001
00111101
01001110
11011010
00111101
00111010
01010100
10111000
00101001
00011010
01010011
00110010
11100011
00101011
11001000
11011010
01100110
10111111
11000001
10110010
11010110
01000101
01011100
00110111
10011001
11011000
00101011
01011000
10010011
11010010
00110000
11001110
11010100
01011001
00111111
10100001
00001100
01000111
10111110
10111101
00001011
11001110
11011101
00111010
00100001
00111101
11001100
01011001
10100110
