1111111111011001
1111111101111101
0000000000001100
1111111110100100
1111111110100010
1111111110111111
0000000000100101
1111111110101100
1111111110111000
1111111110000111
1111111110110010
0000000001101010
0000000000110111
0000000000111101
1111111111010001
1111111110111100
1111111111100001
0000000000001110
1111111111000111
0000000001111101
0000000001001010
1111111110001001
1111111110111010
1111111111011001
0000000000110001
0000000000010000
1111111111001111
1111111111000001
0000000001100110
1111111111001101
0000000000010100
0000000001001000
0000000000100101
0000000001001110
1111111110101010
0000000001111001
0000000001010010
1111111110110000
1111111101111001
0000000000001100
0000000000001100
0000000000011101
1111111110000011
1111111101110011
0000000010101110
0000000000101011
1111111111111110
1111111111101001
0000000001010010
0000000001110101
1111111110011110
0000000001010100
0000000000000110
1111111110011010
1111111110010100
1111111111010001
1111111111101100
1111111111001111
1111111110111100
1111111111110000
0000000000011001
1111111111101001
0000000000011001
0000000001010100
1111111111100011
0000000010110110
1111111101010000
1111111111110010
0000000000100001
1111111111011101
1111111101101001
1111111111101100
0000000000111101
1111111110001101
1111111111101001
1111111110001101
0000000001100110
1111111110110000
0000000001010000
0000000000000010
0000000001100100
1111111100011101
1111111111001101
1111111111000001
0000000010000001
1111111110110100
0000000001101010
1111111111111010
1111111111010001
0000000000001010
0000000000110001
0000000000011011
0000000001100010
1111111111100001
1111111111001101
0000000000001100
0000000000010100
0000000010010111
1111111110011110
0000000001100000
1111111111110000
1111111111111000
1111111110101010
0000000000101011
0000000000110101
1111111111100011
0000000000100011
1111111110001011
1111111111110000
1111111111011101
0000000001001000
1111111111110100
1111111111001111
0000000000001010
0000000000101001
1111111101110101
1111111111110100
0000000000101011
0000000000101111
1111111111010101
1111111111000001
1111111110110100
0000000001001100
0000000001110101
1111111101001110
1111111111010111
1111111110111000
0000000000011011
0000000000001100
1111111110011110
0000000000011001
0000000000000010
1111111111001001
1111111111100101
0000000001001110
1111111111111100
1111111111011011
0000000001011100
0000000000111101
0000000010010011
1111111101110101
1111111111100101
1111111100111110
1111111111110010
1111111110100100
1111111111101100
1111111110000011
1111111110101000
0000000011000010
1111111110100110
0000000000111001
0000000001100110
1111111111000101
0000000000010100
0000000001001100
1111111110100110
1111111111100001
0000000000010010
0000000000010100
0000000000111101
0000000001011110
1111111111101110
1111111110011000
0000000001100110
0000000000011101
1111111110001111
1111111101110111
0000000000011101
1111111111001111
1111111111000011
1111111110111000
1111111101100000
0000000001101010
0000000000110111
0000000001010010
0000000000111101
0000000011010001
1111111111001011
1111111101000100
0000000001001000
0000000000111111
1111111111111110
0000000100000100
0000000000011011
1111111110010100
0000000000011101
1111111101111101
0000000000000100
0000000001111001
0000000000000110
1111111111011011
0000000000001100
1111111111000101
1111111111111000
0000000001110011
1111111110111010
1111111110100100
0000000001001000
0000000010010011
0000000000000110
0000000000000110
0000000000000010
0000000001000001
0000000001111011
1111111101110011
1111111111001011
1111111111111000
1111111110111010
1111111110111000
1111111110100000
1111111110101010
1111111111100111
0000000000010000
1111111111010101
0000000000100111
1111111111010111
1111111110111111
1111111110111000
0000000001101000
0000000001111101
1111111111000101
0000000000010000
1111111111001011
1111111111111010
1111111101110001
0000000001001100
0000000001111111
1111111110110010
1111111111010011
0000000001100010
0000000001111001
0000000001011100
1111111111111110
0000000011010011
0000000001010110
1111111101110111
0000000000010100
0000000000011001
0000000001011010
0000000001110001
1111111110010100
1111111100001100
0000000011001011
1111111110011010
0000000000111001
1111111110110010
0000000001011110
0000000000010111
1111111111101001
1111111111110000
0000000000011101
0000000001011010
0000000000111111
1111111111100111
0000000000000010
0000000000001000
