0000000110001011
0000111101011111
1111100100111110
0000101011010110
0000100000111101
1111111001110011
0000010011000010
0000010100011100
1110111011111100
1111101000111001
0000010110011111
1111010100001101
1111100111100111
1111010001111100
1111101001100100
1111011100111011
0000101010101011
0000110111001100
0000100110000010
1111110000111011
1111010111100011
1111101100000010
1111000100100000
0000000101000000
0000111011100001
0000100010000111
0000111000111110
0000100010011000
1111111000100011
1111101111011101
1111111011011111
1111011000100110
1111011111101100
0000011001000000
1111001000111100
0000111000000001
1111011100100010
0000001100111101
1111010000101011
1111000110001110
1111101100101000
1111110110111100
0000100010100110
1111001001100010
1111111110011010
0000011110101101
1111110001111100
0000000001101110
0000000001111101
0000001111010101
0000111010011010
0000110101001111
1111001111000000
1111011111101111
1111110100010010
1110111100101110
0000011000101111
0000110001100101
1111000110101101
1111110100010110
1111011010001000
1111100101101111
1111010111000011
1111001000010010
