00000000
00000111
11111101
00000101
00000100
00000000
00000010
00000010
11111000
11111110
00000010
11111011
11111101
11111011
11111110
11111100
00000101
00000110
00000100
11111111
11111011
11111110
11111001
00000000
00000111
00000100
00000111
00000100
00000000
11111110
00000000
11111100
11111100
00000011
11111010
00000111
11111100
00000001
11111011
11111001
11111110
11111111
00000100
11111010
00000000
00000011
11111111
00000000
00000000
00000001
00000111
00000110
11111010
11111100
11111111
11111000
00000011
00000110
11111001
11111111
11111100
11111101
11111011
11111010
