00001100
11101111
11101011
11101100
00001010
11100110
00011010
00010110
00010010
00011011
11101101
00000001
11101011
00011011
00000011
00000000
00011100
00111011
00101100
11011011
00101000
00001110
10111110
00000111
00000001
00001010
11100011
01001000
11110100
11111101
00110000
11000100
00011111
11000010
11111100
00101110
00000010
00000011
11110000
11110000
11011101
11101110
00100000
00101110
00010101
11100110
11101001
00100011
11111110
10000000
00101010
00101011
00101100
00001101
00001000
11111000
11111011
11101101
00000010
11110101
11101010
00000110
00001101
00001000
11100000
00111010
11001000
01000000
11001001
00110000
00010110
11010101
11100000
11101010
00101010
11001110
00100111
11001110
11010100
11101100
11110010
00010101
00110001
11100001
00010001
00010100
11110001
00010010
00010010
00001010
00000110
11000011
11101011
00001001
11111111
00001111
