11111110
11011001
11010110
11111101
00010110
00000011
01011010
00000110
11111100
00100101
11011001
10101010
00000010
00011000
00010011
00110101
11011101
00011100
00110010
01011101
11111101
11100010
11101111
11101101
11101010
11011010
11110000
01010011
00000101
11111111
11111111
00001101
11111111
10101111
00100100
01010100
00000101
11100110
01101100
00000100
00000011
11111100
11001010
00011100
11101001
00010010
00100110
00001011
00110001
11001000
00011011
00110100
00100001
00101100
11011010
00011010
11010100
00011100
00011000
11011111
00011100
11001011
11110001
00011000
10010001
01000100
11011011
00100101
00101000
11110110
11010001
11011100
11000110
11110100
00001100
00000011
00001001
11100111
11110000
00011000
00000101
10000001
01001100
00110000
01100101
11011000
01001101
00010011
00011010
00101010
11000000
11101011
11000111
00101010
00100001
11101100
00001101
11110011
11011110
11110110
00011100
00100001
01001001
00100011
00010110
00011110
10111011
00011000
11101001
00011111
00100001
00110010
00011101
00011011
00000011
00111111
00000101
00101000
01010100
11111001
00100111
00100001
11100000
10011001
11100101
00100100
00110011
10101100
11110011
00010001
11111111
00011100
11100111
11100110
11001011
00001000
11110100
00011110
11010010
01010011
11110111
11110101
00010100
00000101
00011011
11011100
11111101
00100111
00101000
11011011
00000110
00010011
00001010
00011001
00000100
01000110
11100010
00001010
00010101
00001000
11111011
10110010
10111100
11011000
10101111
11110000
00110000
00100100
00000101
11011111
11010101
00001010
11100101
00010010
00010100
11101111
00000110
11101100
11010000
11101110
11000001
11110001
00010010
00000101
00010011
11101010
11010100
00100100
11101001
00001111
00100011
00111101
11101110
00101111
11010001
01000100
00011100
01000111
00011010
10010010
11110001
00000111
00101101
00111000
00001000
11110110
11110011
00000001
00100111
00000110
11010000
11110010
00111000
00000001
11111110
00000010
00010010
01000000
11000001
00111101
11100111
11111100
00100011
00110001
11100111
00010101
11010101
11111100
00000000
00110100
10101000
00010101
11011001
10001110
00000111
01001101
11111110
11011011
11011101
00001010
11000011
11011111
00000101
10100010
00101011
01010010
11111001
00100001
00001000
00011010
11110100
11011000
11110100
11110100
00000101
00011010
