00001001
11101110
00011000
00001101
10101110
00100110
00010001
11001001
00010010
01010100
11100000
11001111
01000001
11110100
00010010
00011101
11111001
11100101
10110100
11001110
01110011
00101110
00011110
11011111
11110100
11000001
00011001
00010010
00001000
00101011
11111000
11001011
00111101
11101101
11100000
00100000
11000110
00011110
00010110
11011011
11110000
11010001
11010010
00100111
10101011
00010111
00110000
10111001
11010111
00111100
00010111
11010110
00001000
00001000
11100101
01001001
00000000
00001011
11100011
11101101
00001011
11011011
00110000
00001100
00111110
10110011
00000100
00111101
10101010
00001101
00011010
11000010
11111000
00010101
11100001
00001001
11001100
00100100
00011101
11101010
00001101
00011101
11100000
11100000
00010101
00110101
11110001
00010110
11110000
11000100
11011101
11110110
11100111
00010101
00101110
11010000
11110001
00010100
00011011
11110011
00011100
11000100
00000000
00010100
00101011
00010001
00110100
11101011
00001100
11011100
11001010
01000001
00110100
11001010
00001000
01010100
11100101
11000010
00111011
10101010
11011101
00001101
00101001
00011011
11000101
00101111
11000111
11100101
00011111
11101110
00001110
00100010
11111001
10101010
00110101
11000111
11101101
11101110
01001111
00010011
11000001
00100010
11001101
00001001
00101110
11000110
00000001
00100101
00010100
11010010
00001001
10110111
00001110
00001000
00110000
00111100
11111011
00011001
11000010
00010001
11011010
00111001
11111110
11111011
11111010
00011101
11111000
00111010
11110001
11111000
11010001
11110001
11100011
11101100
00111011
11011111
11111011
11100101
11111010
11111001
11001111
00100000
00010100
11011100
00011010
00110110
11101111
11110110
01110001
11011001
00001010
00001101
11110011
00101101
11100010
11000011
00010110
01010111
10111111
00111010
00100011
11101000
11010100
11001000
00111100
11110001
00100110
00011000
00011101
11001110
00100001
01010001
11011010
10110111
00010011
11011000
00001101
11111011
00101110
00101111
11001110
00001111
10111100
00011111
00011011
10101110
11010110
00010010
11010011
00010110
00111000
10101010
00000000
11111001
11110111
00110101
00101001
00011001
11100111
11100100
00000000
00100100
01000110
01000010
11010111
11111001
00011110
00010111
00001101
11100101
11001010
11101000
10000000
11011000
00011000
00000101
